02fffc02fdfe030100fdfffb03fc0301
00fb0401fb01fe0104fefb0304010204
0002fe03fcff02fb03010303010302fd
040300fcff0304fefcff0403ff00fffc
0104fe00fbfd040404fbfefe04fefc01
fc0001fdfbfe0304fb04feffff04fc01
fdfc0002fc0002ff0304fe00fe0104fd
fb01fb0102fdff01020003fbfe02fcfc
04fcfffefc0404fd01fefc04fc0302fe
fcfefdfbfd0104fcfdfefd040203fdfb
04feff0200ffff03ff03feff01fe0201
fdfd0104fefb0403fb04fcfbfcfb0000
