0103fdfffd0102fefcfbfbffff00fb04
fc03fffbfdfdfffb03fbfd04030400fc
fcfcfcfc0203fd00fcff01fefffb04ff
fc02fd04fe040102000001fcfc03fdfb
fefc0301fe0201fffefb0401ff0101fc
040101fbfbfcfffefdff01fffe03fbfc
03ff0103ffff0404fb04020102010103
01000201fb04fc01ff0002fcfbfefd04
fdff04fb01fc03fefbfefd00fdfefdfd
fefc03fb000404fefc00fc0003fb0403
020100fe02ff0101fb02fcfdfb01fe03
fb03fd0102fffdfdfefb0201030404fb
