02fbfdfc000103fbff04fefefe03fb04
010402fdfffefdfcfc00fb02fc040302
fc0203000302fdfd01fdfdfc01fb03ff
00020003fe01fcfcfffefd01fffffdfc
00020303fcff0403fe0401010104fbff
fcff01fcfffc04feff0100fefcfefbfe
fd0204fb0204000404fdfdfffefc00fc
03030000fe04fb01fffe02fcfb00ff01
fefd01fd0100fc0201fc01fcfe0401ff
00030404fdfcfdff0302040403fbfc02
030304fdff020200fbfffcfe010402ff
ff03ff00fc010202030200fc03fd00fe
