fdfefd03030202fe0100fdfdfefd01fb
02fdfb02fe01020202fd010103fffe03
fd020300fc03feff0004fefbfdfefc00
0301fb0203fb01fd03fcfefefd010301
04fefcff0301030302fffc03fbfefb01
0202fbfd0002fe03fffbfdfefe03fd01
fc0103fb0102ff040203fbfefffffe03
fb00fc04fffdfe00fdfb02fbfcfb01fc
0203fb01fefd04040401fc02fdfffbff
fbfefb0403fb04020403040300fe04fb
fb02030400fc04fbff0003ff03fd04fc
fe00000104010403fdfffd01fffc03ff
