e65024501ffd0a5abebbebae331ec00e
2fd7b54c4b1fc2ccefcf9e16c6f0c124
3d632af607c0a7b0f1eac6acd254385b
9dc8b202e6410da1bb353f0d491e60d1
0a345baddebaf7b7d8a6b6a3cf1cc8c9
c3a734c32e2811420d0462b6404ba138
ba1ca2dfecb8d3cb23cecbe7546106eb
2e19514cba35e95dd7d62fc0289c11e3
4cc8c8b5e7d39f63a7da070abd24d60c
2f515b1aeee828a7e9d742c04ba92638
04a327c3d4f309b846c04fa434ccc234
ee283e5fcb4934a4b99ec5f410cfbf08
