329dbca1eae0a1e12ffad34f4ff3c827
e1370ed16126d7a2b128c4ace25835ce
bb1e36af1ed1d1e5a227c6a2c2c4fb32
1e17d0623aac60a401a6fadc33fa0835
c43af12e545fb00daffd09f02800f229
fe9fe35d4b24ceabf6e854409d18a7a8
53b246202daffdc0a3a5e33a29a828e4
0352b93c3ab6632ab9b80824e0a53837
4e3bed55b00048fa58e71a3ced18aba9
5a4aaddc2822dc071defd72a9cc82ff2
16b9470102ef512629e8610c5ecf624c
a51e0a0461ec0fc7df5032d8f3514ad7
