fb09fefc000800f8fdfa00f6fb0905f9
00f602f6fefbfe07fe02fcfbfcf7fd04
fef7090207ff0009f6f80305fb05fbfb
fefef8f6fd00fcf8fbf7fdfc04fcfbf8
f8030801faff050807f9f604fa070008
0902fe04fbfa05f60408030107f8fd04
fb01f80809f7f6fc0606fd06fdf70409
fffcfa03fc06f80103f708f6fcf60309
fe06fa01f8ff0702060101fe010406fb
f6fdfafef90303fff60508f7f906f702
fc01fd01fbf704f8090308f8faf6fefa
000803020709f90300fcfb0908f70002
