f6fefc0002fffefc02fafefc03f803ff
ff030706fb050202f6f70905090106fd
f6fc00f9fd0001fdf800f9fa09010405
f803f804faf8fdf8f909f60503fcf8f9
0703fbfff70505f9fafaf8f805f60800
03090404f604fb0707fe00fff9fcf703
fcfb06f9fe0109f908fb0206fcf7fff9
03f9f8070606080906f8090706f80100
000009fc04ff0402fc07f901fafefc08
0003fc05fc09070208faf90908f70102
f60200ff04f600f7f7fcfffb02070208
04010101030900fbf701f8fc0104fc04
