07f8020704f80704
060101fbff05fd03
070908fdf7faf7fd
fc02fffc01f709fe
fef608fd02fafa05
f8f7f9f7fb060705
fff904f8fafffd06
fbfdfc0806f90508
fe08fd01f900fcfb
fbf6fafa08f7f6f9
f80402fc08f703f7
02fefd00fa000402
080208f8fe03f600
000706fa0309fef7
f70402fdf706f8f9
09fe000103fa0808
000201f802020707
00f704fcfa020706
fc00fb0801fb0807
09f8f7020905fcfd
0008f9fffdfbf6f7
f800fe05fd050209
fd0200fd00f8fffa
06f7f90404f6f7fb
