f901f807fef6f9f6
0400f809f8020001
fffe00fe03090009
fd0204f7fb06fd08
0909f7fff9090804
f9fcff00f607fe02
fff7f6fd00fa04f8
01fcfaf80805f807
0802fa05fa000507
fff907f909f903f6
fff70709f80700fc
f70302fc09fd0201
0804fe07fbf6f9fc
f9fe01fe0700fb06
09f8f80607070104
0701f806fffd06fa
fbfa07faff07fb02
f7fcf8f7080801ff
fef9ff03fc09fe05
fff7fcf8fe0908ff
02ff09070505f808
0002fbfafb020804
0708030700f709fe
fefb09f806f9f6fc
