ff00000609f60101
07080907fb050906
f8fb020500fcfc04
fcf7fc08f9fef6fd
0707faf808fef900
fe01f7fafd0408fa
fff8f709070302f7
ff0406f70803f702
fc09fdf7f6f809fd
05faf60005fcf6fb
f8f6040107f60306
fb0008fcf8f8f7fb
fa020900fef8fa05
f6060001030506fa
02fb02f70402f807
060203060405f609
fa020709fa0904fb
fbf903faf9fa09fd
fefb0806050603fc
01f80805ff060604
f80708fa0208fe00
09fb0506fc070303
06fafc06fbfc0606
040403000003ff03
