fff90700fd050205
00fe06fe02020103
fc05ff05ff0005f6
0209f6ff0706f801
060904f907f90900
f80602f7f702fb06
040805fbfd0008f6
f9fdf608fc0004fd
09fdf8f701f7ff06
fdf8fd04f6fcf8f6
fb0309fb06fd06fc
0402f80506fa02fb
fbfefbfefffb09f8
faf6030307fe0601
00f80202fb00ff00
fe07010301fbf701
fffa01faf9fa02fd
01fb0806f90107fe
02f706f6fdfffafb
f8fa0400fe030909
f9fd00fb03f9fc06
03faf7030802f9fe
03faf70406f8f907
0905fc05fcfafe02
