fff80408010408f8
fa02f702f800fffd
fa07fc06f807f701
f907f6fcff09fdf6
f705fdff0500f609
09fc03f6fd03ff05
09fcfffaf60704f9
050909fbf604f8fb
0408fb0004fcfcfe
02fd02fb0609fc00
f707f9f803040506
f9ff0202faf6ff03
fa09fa0302fe0806
020000fb05f906f6
0208f609f80700f8
08030301f6f8f901
fa02f6fc0907f706
03f7fcf903f6f8fe
080101fdff0802fa
06fdfb030304f6ff
fbf9030907080908
0508fc00f703f9fd
05fefa0501090002
08fffdfaf8fefdfe
