08f904fbfaf8ff05
00000701030600fd
fd09fa060801fb06
08f6ff03fe05fd05
fdff08f6fcfffd02
f9fdf60402fdf908
00fdfaf6fc0702f8
0709040306fcf907
06f6010400fefa04
01f90800f905fa00
04fdfc0703fafcff
010203fcfc0602fe
0100f9fef600f8f8
04f900f602030400
050408f7fd050102
fef700fe0900f7fa
09f7fb01010006fb
fc060806f7fffcfd
06fe0705fe07f700
fcfb0206fb050702
fbf8f6000003fa03
0505080607f9f8fb
070208ff03fcf8ff
fd01f6fc0308fdfa
