08f9020107020409
fbfd08f7faf8f9fe
030901fcfafcf708
fa08000106080106
09f9fcf900040004
f8020707f6f700fb
090208f609f9f8fc
0201060808fa07fe
fdf7fafe05fdfa07
fe09ff00f6010304
ff05030600f7f803
fafa07fa01010109
06f6fefdfefd0102
fafa0605f7ff02ff
fff8000002ff0703
f7010401f7fef7f8
f8fbfe06fb0501f8
fc09fdf7fe040403
f7f8f8f9f801fff8
fa0007fd03f804f8
00f8fdf60605f801
f606f608fc050600
fafcfeff03000001
fb090107020001f8
