fbfdfa05f701fe08
fafffbfb000707fb
f801f704fd070205
f9f70404f7010204
08fcf70103fbfdfe
04020005f9f8fefc
020804fbfe06fffa
f8080305f6020700
f9f700050303f9f8
01f803fcf6f8fe02
090804fc00f9fff7
f6050104fd01fc03
fbf7f6fa03f7fdfe
fbfcfef600000207
faf7fc0704f807f6
fc05fff8fa01f7f8
f7f903fe05fe03f8
f80503fb01fefdfc
01fe05fa070904fd
fcfef7f8fc060208
09ff08f6fc060007
09030805f7fb0205
f9f6f6f8f9f8fa05
f6f6fa0600fef705
