f9fe03010909faf9
06fafe03fffdf7f9
00ff09fefa04fa07
faf909f905f8f6f8
08f801070209ff00
00f8f605fdfa0006
f8fdfdfefef7f804
fa0701ff020308f7
fff70703f9fe0009
fefb040109000002
f9060700f9fdfb09
05fa00f7fb0607fa
f60102fdfcfff908
f705f90202020003
0109030004fd0303
0406fa010002fefd
f6fdfafd02f7f7f7
0901ff08f9fff8f9
0906fe000500fd05
f700fc0305fc0308
fd05f9f8070607fa
f8090207060402ff
fdff0001f70309f6
0705030707ff00f8
