0604f70705fafa08
f7fa0709f8fdfa00
00fb020000fcfdfa
080304f90902f706
f7fffd06fdf9fc07
f9f9ffff02fffd02
07070003fa0002f7
fdf906070303f605
faf9010008f90607
01fd08f8fbfc07f7
f6fd05f9f8f7f702
f60201fbf60502f7
05f9ff090006faf7
f601ff07fafbf7fb
f6feff0105050806
fcf7fd0603f8fafd
05f705f8f7fbfc00
0502fc0707faf6f9
fe010106fa0608fd
0404faf806fe04fc
f80405fbfc06fcf6
fa0206f703f906ff
fefb02ffff030900
faf607040606fbfd
