f607f903faf6fefc
f9f9fe01f60105f9
0702fefc0001f6ff
fdf6f8f7fa01fdfc
08fe02ff03fd0608
09050605f8fa0001
04ff01fbf8f6fe06
f807fd0605020402
fa08f7f707070708
fb03fb0403f807f7
07fdfdfffe010308
fa09f7f70209fb03
01fff8f90504f7f8
fdf70408f8ff0108
0504fd0705f903fa
fe00fdfdfefdfffe
fefefa01f6f90606
fefc080606f9f901
f7fcf7fe00f8fc08
0308fe03f7f8f706
fdfef80404f80403
ff08f6f908fd05f6
03f7f9f6f7ff0301
f603f8fa03f90207
