faf8f701fc0807f6
04f9f7fbfdf9fbff
02fd04f709fcf9f6
07ff0102ff030401
fbfff70200f703fd
0904f6fc00fef6f6
fefffd07f6fa01f6
fb07fcf8040702fe
f8fef70407070007
07f8fc06faf8f9f8
fbfc01f704f7f904
f9f60803f604fb09
fbfd0508fcf9fe06
f70302030305fb01
0301fd0501fb0300
f60309f6fa0305f7
fe09f6fe09fc05fc
fcfe01faf9060105
f7fc0701fe050309
f807fe01ff0900fe
fc05ff02f703f6f6
0300fbfd04faf6fa
06ff07fe030808f6
fef804fb06f90609
