00f60804f6f6fb09
fa05fb01feff04fd
fd0208fe05f6f903
f6ff03f6070601f9
030507fdfaf7f705
fcfa0105f7fdfefc
060406f8f7fdfc09
fa08fffbfa00fa09
fbfa08fcfa00fffa
fc00f8010105f7fc
0704fbf60907fe06
fb01f7f7fc0701f8
fbfe08faff09feff
060001f6f700fb06
010900fe04fb0903
f808fd0305fbf6f7
f9fbf90207f9fefe
fa0508f6faf7fe00
fefff906060507f9
000209fcfb04ff07
04070805090806fe
00fcfaf8fe04f8f8
f8fcf7f608060903
fe02f805090601f7
