fefaf606050503fd
fefc0702090001fc
06fd04f60304ff03
0109fc01f6fd03ff
fb070508fef909fe
0509ff05fa060803
0207fc07fef7ff09
0006fff906010605
06f804fcfbf600fc
0705f902f7fe0205
f607faf60204fb07
0009f80601fffe06
f9fe06070502fdfd
02f8f7f9fbf7f6ff
ff02fff6f7fc03fe
f7fe00010004f809
fa010608000409fe
05080108fbf601f9
05fe0402f701f6fe
0803f606fefbf703
f9fdfc020205f6f8
0003fa07fdfa0609
080600080806fffe
fa080306f9f708f6
