fdff05fb080505f9
fbfbf7fb08050604
f707f9fd07070707
050409f6f804f8fc
090309fafdfbfa03
fef8fd01080403fd
0106fcf705f809fd
fdf801f702ff00f8
f8f8fafb060307ff
fafbf708fb02fc05
f90707fa08f8f8fa
0001fdfe01fbf909
0607ff00fc080305
080309fbfe03f706
03fbfcfe01fe00f7
03ff09fdf90009fc
f6f605f702070706
0003020505fb0307
faf8f709fd08fcfc
ff07ff01fcfcfb06
fcfb0102fe0000f8
040004fefc03fbf8
05ff040203f801fb
03f60301fdf605ff
