f8ff0102fafc07f8
f7fff903faf709fc
faf8ff05fd0206fa
f9000906ff080801
0802fb0107fdfbff
f7f7ff09fffd09f8
02fb0002f7f80002
06ff03040802f803
0305fef70104fbfc
fbff0103f8060207
0904fcfc06fbfbf6
07030107f809fcf8
0202fd03fdfdfc06
f809030901f80409
fcfbf802f901ff07
f904f9f901f6fb03
0202fc06f9f70002
ff03ff01fc08fa08
f7f805fef9090001
f7f8fc0506080307
f806050405fa0803
0302fbf7f708fb07
fa01f9f9010400fd
000702f6f7020503
