faf9fefbfbf701fa
f604030404f800f6
f70600ff0506fe09
080007fff70705f6
f603f70403f801f6
f6f801fefcfffcff
fef8030807fbf903
06f806090103f8f9
fb0905faf8fcf7f7
fef6f805030804fc
fe0703fe0305fdf7
f601f608ff0505ff
fb0606f8f7f608f9
06fcf9ff0209f7fb
f907ff080709fc05
0905050404f604f6
09fb08f802090207
fef8010806fff6f9
08fd0908f9000304
05f8fdfefdfdfdfd
05f7f9fa01090002
0107f8f906ff0009
07f90104ff08f601
02fdf6ff090400fc
