f7fbf90802fcf701
08fe03090009fa09
f70005fb05f80500
020103020103fef8
05f9f606fc040801
04fdfbfaf6fcfb08
0205f700f80403fe
f7fdf703f9f80204
01030005f80500f8
05fdfcf6f800f600
08fdfd0904f601f6
fa01f6fefb01ff09
03f604fc01f70508
ff06f8050607f8fe
05fe07fc09fc0306
090106fffcfd02f9
090905f9fd060602
f702ffff050107f9
06f8fcfdfafb07fa
0807fdf807f6fafd
f90402fcfb07f6fb
0906fa040601fa03
04fafffa080007fa
fefa0301fbfffbfb
