f7060605fa090506
f90809fc01f704fe
0705fbfd04fb0909
fa0806fbfdfcfe03
03000001fbf9fdfc
f8f6ff00f8fb0000
f909fcfcff08fb04
0705fef80101fbfd
02fefb010208fa04
03010703f8f908fa
fe05fcfe04f9fd07
02f808fdff03fe01
0200f9ff06ff09f8
09fa04fc02f7fa09
f6f7f603fc09fdfb
fcfeff0904fdf9f7
fbfaf7fbf7f8f6fb
0207fc0505fafc00
f904fb06070509f6
fdf6fc0608fe0800
f7fdf9faf8030607
01f6040004f7f907
05f808f7ff020408
f900fafcfe0709f9
