ff07fa08f8fbff01
020608f8f9f7f9fb
0809fa06020905f8
fa08ff07fbfaf6f8
fef9f8f9fb04fa08
0400fc0105fbfb05
fafb07fb0305f6fe
04fcfd09fffd0007
0200f809080503f6
fc000806fffbf803
fc090206fe010607
0109fdf608f90104
f6fb04fd07f70806
0706f8fafa02f808
05fb01ff06f70507
05f7fa0903f80500
faf6fcfa040202fd
07f7fcf903f801f6
08fffff6f8fefbf8
f90908fc03fbfb05
fcfb000301fefdfe
0807f803f80802fd
f701000001f7fdf9
fa0300fdfc070606
