03f9f9fe02fd07fe
f9f90202fc01fef8
02fe0307f7010402
0305f909f6f7fa08
f90809010004fefb
f708fb00fcfc0301
fcf70803f900fcfa
080208f6fd04fe05
fef909f8f8060404
0503f80601f904fa
0307f6fe00fafa04
090102fbfd05fc01
06fcfbf702faf900
05fafd00fc06fafe
08fb0205f6f9f6fa
0005080702fcf705
07ff04f804ff0608
f602fd01fffcf801
07fcf9fcfb0002f8
f807070207ff08fa
f903fd00f6050901
00fef6fb09fbf8f8
f709030803f70906
f6070507fbfdfff8
