0205f903f7070403
ff05f706fa06fb01
ff080003fc080002
f60100fff7000201
040002f601fd0607
010100fef604ff04
080502faff00fefb
01f8fc07f9f80709
f6ff01fffef60305
06fd07ff04fb07fd
08fe07fa000205fb
0204ff0607fb07f9
06f6f905ff0309ff
f909fc03f6fafef6
06f904fa01f7ff04
f9f705070408fc00
07f904f9f9080806
f6f707020909fa01
f80808fbfffc0706
0809fffafd05fffb
f8fffdf603f6fb06
fdff0002fef6f906
fb00f7f6010904f8
08f8fd0602f60606
