03f90308fdfa03fb
fbf802fb0008fe08
fa0904f9fe0209fd
fe06fe00f7ff01fd
fe03fa03fefcf8fd
fb09f7f604f60600
fdf905fefaf6f601
f9f90805fb05fc02
ff00f7fa0900faf6
08f806fd0706fafc
fbfa00f7f8f9fef7
fd0109f70505fdfc
05f8faf702fafffd
f605f70100050106
08faf8f804f9fcf9
fb040305fb01f6fc
fff9f803000402f8
0805ff02fff60406
fb00fc0201fafcf9
0000f605ff04f807
fdf700fd05f609f9
0709f9fdfefef8fd
0306f806fc08f604
08fb01f909f90001
