fb0801fb000009fa
f9fffb04fa08fc03
01f8ff0600f8fa09
08f804fc05fd07f6
08ff020208090402
09fa09030008f9fb
07f70204fbfbfdff
070608fffe09fcfc
f9000308fafb0402
00040901f808fc07
0302fafe01fdfbf7
090607fa010306fd
f6fc0206f8090703
ff0103fa04000407
020505fdf607fd06
f701fb07f705fc08
030107f6010902ff
0301fdf9fafc0300
fb000100fff80905
00f8f904f6fffaf7
0302fbfefafb0604
00fefffd04060602
fafbfe080908fc03
fc0905f70209f702
