00000701030600fd08f904fbfaf8ff05
08f6ff03fe05fd05fd09fa060801fb06
f9fdf60402fdf908fdff08f6fcfffd02
0709040306fcf90700fdfaf6fc0702f8
01f90800f905fa0006f6010400fefa04
010203fcfc0602fe04fdfc0703fafcff
04f900f6020304000100f9fef600f8f8
fef700fe0900f7fa050408f7fd050102
fc060806f7fffcfd09f7fb01010006fb
fcfb0206fb05070206fe0705fe07f700
0505080607f9f8fbfbf8f6000003fa03
fd01f6fc0308fdfa070208ff03fcf8ff
