04f9f7fbfdf9fbfffaf8f701fc0807f6
07ff0102ff03040102fd04f709fcf9f6
0904f6fc00fef6f6fbfff70200f703fd
fb07fcf8040702fefefffd07f6fa01f6
07f8fc06faf8f9f8f8fef70407070007
f9f60803f604fb09fbfc01f704f7f904
f70302030305fb01fbfd0508fcf9fe06
f60309f6fa0305f70301fd0501fb0300
fcfe01faf9060105fe09f6fe09fc05fc
f807fe01ff0900fef7fc0701fe050309
0300fbfd04faf6fafc05ff02f703f6f6
fef804fb06f9060906ff07fe030808f6
