fbfd08f7faf8f9fe08f9020107020409
fa08000106080106030901fcfafcf708
f8020707f6f700fb09f9fcf900040004
0201060808fa07fe090208f609f9f8fc
fe09ff00f6010304fdf7fafe05fdfa07
fafa07fa01010109ff05030600f7f803
fafa0605f7ff02ff06f6fefdfefd0102
f7010401f7fef7f8fff8000002ff0703
fc09fdf7fe040403f8fbfe06fb0501f8
fa0007fd03f804f8f7f8f8f9f801fff8
f606f608fc05060000f8fdf60605f801
fb090107020001f8fafcfeff03000001
