f9fffb04fa08fc03fb0801fb000009fa
08f804fc05fd07f601f8ff0600f8fa09
09fa09030008f9fb08ff020208090402
070608fffe09fcfc07f70204fbfbfdff
00040901f808fc07f9000308fafb0402
090607fa010306fd0302fafe01fdfbf7
ff0103fa04000407f6fc0206f8090703
f701fb07f705fc08020505fdf607fd06
0301fdf9fafc0300030107f6010902ff
00f8f904f6fffaf7fb000100fff80905
00fefffd040606020302fbfefafb0604
fc0905f70209f702fafbfe080908fc03
