00fe06fe02020103fff90700fd050205
0209f6ff0706f801fc05ff05ff0005f6
f80602f7f702fb06060904f907f90900
f9fdf608fc0004fd040805fbfd0008f6
fdf8fd04f6fcf8f609fdf8f701f7ff06
0402f80506fa02fbfb0309fb06fd06fc
faf6030307fe0601fbfefbfefffb09f8
fe07010301fbf70100f80202fb00ff00
01fb0806f90107fefffa01faf9fa02fd
f8fa0400fe03090902f706f6fdfffafb
03faf7030802f9fef9fd00fb03f9fc06
0905fc05fcfafe0203faf70406f8f907
