fa05fb01feff04fd00f60804f6f6fb09
f6ff03f6070601f9fd0208fe05f6f903
fcfa0105f7fdfefc030507fdfaf7f705
fa08fffbfa00fa09060406f8f7fdfc09
fc00f8010105f7fcfbfa08fcfa00fffa
fb01f7f7fc0701f80704fbf60907fe06
060001f6f700fb06fbfe08faff09feff
f808fd0305fbf6f7010900fe04fb0903
fa0508f6faf7fe00f9fbf90207f9fefe
000209fcfb04ff07fefff906060507f9
00fcfaf8fe04f8f804070805090806fe
fe02f805090601f7f8fcf7f608060903
