07080907fb050906ff00000609f60101
fcf7fc08f9fef6fdf8fb020500fcfc04
fe01f7fafd0408fa0707faf808fef900
ff0406f70803f702fff8f709070302f7
05faf60005fcf6fbfc09fdf7f6f809fd
fb0008fcf8f8f7fbf8f6040107f60306
f6060001030506fafa020900fef8fa05
060203060405f60902fb02f70402f807
fbf903faf9fa09fdfa020709fa0904fb
01f80805ff060604fefb0806050603fc
09fb0506fc070303f80708fa0208fe00
040403000003ff0306fafc06fbfc0606
