f9f90202fc01fef803f9f9fe02fd07fe
0305f909f6f7fa0802fe0307f7010402
f708fb00fcfc0301f90809010004fefb
080208f6fd04fe05fcf70803f900fcfa
0503f80601f904fafef909f8f8060404
090102fbfd05fc010307f6fe00fafa04
05fafd00fc06fafe06fcfbf702faf900
0005080702fcf70508fb0205f6f9f6fa
f602fd01fffcf80107ff04f804ff0608
f807070207ff08fa07fcf9fcfb0002f8
00fef6fb09fbf8f8f903fd00f6050901
f6070507fbfdfff8f709030803f70906
