f604030404f800f6faf9fefbfbf701fa
080007fff70705f6f70600ff0506fe09
f6f801fefcfffcfff603f70403f801f6
06f806090103f8f9fef8030807fbf903
fef6f805030804fcfb0905faf8fcf7f7
f601f608ff0505fffe0703fe0305fdf7
06fcf9ff0209f7fbfb0606f8f7f608f9
0905050404f604f6f907ff080709fc05
fef8010806fff6f909fb08f802090207
05f8fdfefdfdfdfd08fd0908f9000304
0107f8f906ff000905f7f9fa01090002
02fdf6ff090400fc07f90104ff08f601
