08fe03090009fa09f7fbf90802fcf701
020103020103fef8f70005fb05f80500
04fdfbfaf6fcfb0805f9f606fc040801
f7fdf703f9f802040205f700f80403fe
05fdfcf6f800f60001030005f80500f8
fa01f6fefb01ff0908fdfd0904f601f6
ff06f8050607f8fe03f604fc01f70508
090106fffcfd02f905fe07fc09fc0306
f702ffff050107f9090905f9fd060602
0807fdf807f6fafd06f8fcfdfafb07fa
0906fa040601fa03f90402fcfb07f6fb
fefa0301fbfffbfb04fafffa080007fa
