f7fff903faf709fcf8ff0102fafc07f8
f9000906ff080801faf8ff05fd0206fa
f7f7ff09fffd09f80802fb0107fdfbff
06ff03040802f80302fb0002f7f80002
fbff0103f80602070305fef70104fbfc
07030107f809fcf80904fcfc06fbfbf6
f809030901f804090202fd03fdfdfc06
f904f9f901f6fb03fcfbf802f901ff07
ff03ff01fc08fa080202fc06f9f70002
f7f8fc0506080307f7f805fef9090001
0302fbf7f708fb07f806050405fa0803
000702f6f7020503fa01f9f9010400fd
