f9f9fe01f60105f9f607f903faf6fefc
fdf6f8f7fa01fdfc0702fefc0001f6ff
09050605f8fa000108fe02ff03fd0608
f807fd060502040204ff01fbf8f6fe06
fb03fb0403f807f7fa08f7f707070708
fa09f7f70209fb0307fdfdfffe010308
fdf70408f8ff010801fff8f90504f7f8
fe00fdfdfefdfffe0504fd0705f903fa
fefc080606f9f901fefefa01f6f90606
0308fe03f7f8f706f7fcf7fe00f8fc08
ff08f6f908fd05f6fdfef80404f80403
f603f8fa03f9020703f7f9f6f7ff0301
